/* Copyright 2023 The TensorFlow Authors. All Rights Reserved.

Licensed under the Apache License, Version 2.0 (the "License");
you may not use this file except in compliance with the License.
You may obtain a copy of the License at

    http://www.apache.org/licenses/LICENSE-2.0

Unless required by applicable law or agreed to in writing, software
distributed under the License is distributed on an "AS IS" BASIS,
WITHOUT WARRANTIES OR CONDITIONS OF ANY KIND, either express or implied.
See the License for the specific language governing permissions and
limitations under the License.
==============================================================================*/

// This is a standard TensorFlow Lite FlatBuffer model file that has been
// converted into a C data array, so it can be easily compiled into a binary
// for devices that don't have a file system. It was created using the command:
// xxd -i model.tflite > model.cc

#include "micro_features_model.h"

// Keep aligned to 16 bytes for CMSIS
alignas(16) const unsigned char g_model[] = {
  0x1c, 0x00, 0x00, 0x00, 0x54, 0x46, 0x4c, 0x33, 0x14, 0x00, 0x20, 0x00,
  0x1c, 0x00, 0x18, 0x00, 0x14, 0x00, 0x10, 0x00, 0x0c, 0x00, 0x00, 0x00,
  0x08, 0x00, 0x04, 0x00, 0x14, 0x00, 0x00, 0x00, 0x1c, 0x00, 0x00, 0x00,
  0x94, 0x00, 0x00, 0x00, 0xec, 0x00, 0x00, 0x00, 0x24, 0x07, 0x00, 0x00,
  0x34, 0x07, 0x00, 0x00, 0x90, 0x0f, 0x00, 0x00, 0x03, 0x00, 0x00, 0x00,
  0x01, 0x00, 0x00, 0x00, 0x10, 0x00, 0x00, 0x00, 0x00, 0x00, 0x0a, 0x00,
  0x10, 0x00, 0x0c, 0x00, 0x08, 0x00, 0x04, 0x00, 0x0a, 0x00, 0x00, 0x00,
  0x0c, 0x00, 0x00, 0x00, 0x1c, 0x00, 0x00, 0x00, 0x38, 0x00, 0x00, 0x00,
  0x0f, 0x00, 0x00, 0x00, 0x73, 0x65, 0x72, 0x76, 0x69, 0x6e, 0x67, 0x5f,
  0x64, 0x65, 0x66, 0x61, 0x75, 0x6c, 0x74, 0x00, 0x01, 0x00, 0x00, 0x00,
  0x04, 0x00, 0x00, 0x00, 0x94, 0xff, 0xff, 0xff, 0x0c, 0x00, 0x00, 0x00,
  0x04, 0x00, 0x00, 0x00, 0x07, 0x00, 0x00, 0x00, 0x64, 0x65, 0x6e, 0x73,
  0x65, 0x5f, 0x35, 0x00, 0x01, 0x00, 0x00, 0x00, 0x04, 0x00, 0x00, 0x00,
  0xaa, 0xf8, 0xff, 0xff, 0x04, 0x00, 0x00, 0x00, 0x0d, 0x00, 0x00, 0x00,
  0x64, 0x65, 0x6e, 0x73, 0x65, 0x5f, 0x33, 0x5f, 0x69, 0x6e, 0x70, 0x75,
  0x74, 0x00, 0x00, 0x00, 0x02, 0x00, 0x00, 0x00, 0x34, 0x00, 0x00, 0x00,
  0x04, 0x00, 0x00, 0x00, 0xdc, 0xff, 0xff, 0xff, 0x0f, 0x00, 0x00, 0x00,
  0x04, 0x00, 0x00, 0x00, 0x13, 0x00, 0x00, 0x00, 0x43, 0x4f, 0x4e, 0x56,
  0x45, 0x52, 0x53, 0x49, 0x4f, 0x4e, 0x5f, 0x4d, 0x45, 0x54, 0x41, 0x44,
  0x41, 0x54, 0x41, 0x00, 0x08, 0x00, 0x0c, 0x00, 0x08, 0x00, 0x04, 0x00,
  0x08, 0x00, 0x00, 0x00, 0x0e, 0x00, 0x00, 0x00, 0x04, 0x00, 0x00, 0x00,
  0x13, 0x00, 0x00, 0x00, 0x6d, 0x69, 0x6e, 0x5f, 0x72, 0x75, 0x6e, 0x74,
  0x69, 0x6d, 0x65, 0x5f, 0x76, 0x65, 0x72, 0x73, 0x69, 0x6f, 0x6e, 0x00,
  0x10, 0x00, 0x00, 0x00, 0x34, 0x06, 0x00, 0x00, 0x2c, 0x06, 0x00, 0x00,
  0x14, 0x02, 0x00, 0x00, 0xe4, 0x01, 0x00, 0x00, 0x54, 0x01, 0x00, 0x00,
  0x04, 0x01, 0x00, 0x00, 0xd4, 0x00, 0x00, 0x00, 0xbc, 0x00, 0x00, 0x00,
  0xb4, 0x00, 0x00, 0x00, 0xac, 0x00, 0x00, 0x00, 0xa4, 0x00, 0x00, 0x00,
  0x9c, 0x00, 0x00, 0x00, 0x94, 0x00, 0x00, 0x00, 0x8c, 0x00, 0x00, 0x00,
  0x6c, 0x00, 0x00, 0x00, 0x04, 0x00, 0x00, 0x00, 0x66, 0xf9, 0xff, 0xff,
  0x04, 0x00, 0x00, 0x00, 0x58, 0x00, 0x00, 0x00, 0x0c, 0x00, 0x00, 0x00,
  0x08, 0x00, 0x0e, 0x00, 0x08, 0x00, 0x04, 0x00, 0x08, 0x00, 0x00, 0x00,
  0x10, 0x00, 0x00, 0x00, 0x28, 0x00, 0x00, 0x00, 0x00, 0x00, 0x06, 0x00,
  0x08, 0x00, 0x04, 0x00, 0x06, 0x00, 0x00, 0x00, 0x04, 0x00, 0x00, 0x00,
  0x01, 0x00, 0x00, 0x00, 0xeb, 0x03, 0x00, 0x00, 0x00, 0x00, 0x0a, 0x00,
  0x10, 0x00, 0x0c, 0x00, 0x08, 0x00, 0x04, 0x00, 0x0a, 0x00, 0x00, 0x00,
  0x01, 0x00, 0x00, 0x00, 0x02, 0x00, 0x00, 0x00, 0x04, 0x00, 0x00, 0x00,
  0x05, 0x00, 0x00, 0x00, 0x32, 0x2e, 0x39, 0x2e, 0x31, 0x00, 0x00, 0x00,
  0xca, 0xf9, 0xff, 0xff, 0x04, 0x00, 0x00, 0x00, 0x10, 0x00, 0x00, 0x00,
  0x31, 0x2e, 0x31, 0x34, 0x2e, 0x30, 0x00, 0x00, 0x00, 0x00, 0x00, 0x00,
  0x00, 0x00, 0x00, 0x00, 0xb0, 0xf9, 0xff, 0xff, 0xb4, 0xf9, 0xff, 0xff,
  0xb8, 0xf9, 0xff, 0xff, 0xbc, 0xf9, 0xff, 0xff, 0xc0, 0xf9, 0xff, 0xff,
  0xc4, 0xf9, 0xff, 0xff, 0xfe, 0xf9, 0xff, 0xff, 0x04, 0x00, 0x00, 0x00,
  0x08, 0x00, 0x00, 0x00, 0x1c, 0x02, 0x00, 0x00, 0xe4, 0xfd, 0xff, 0xff,
  0x12, 0xfa, 0xff, 0xff, 0x04, 0x00, 0x00, 0x00, 0x20, 0x00, 0x00, 0x00,
  0x20, 0x39, 0xf0, 0xae, 0x9d, 0xdb, 0xa4, 0x7f, 0xf4, 0xdb, 0xcc, 0xba,
  0x5f, 0xc9, 0x0b, 0xdf, 0xa1, 0xb9, 0x11, 0x25, 0x67, 0xa3, 0xce, 0xd8,
  0x41, 0x00, 0xc9, 0x05, 0x9e, 0x3e, 0xec, 0x2d, 0x3e, 0xfa, 0xff, 0xff,
  0x04, 0x00, 0x00, 0x00, 0x40, 0x00, 0x00, 0x00, 0x02, 0x04, 0x00, 0x00,
  0xc7, 0x01, 0x00, 0x00, 0x31, 0x00, 0x00, 0x00, 0x5d, 0x00, 0x00, 0x00,
  0xd1, 0x00, 0x00, 0x00, 0x07, 0x03, 0x00, 0x00, 0xe8, 0x00, 0x00, 0x00,
  0x07, 0x04, 0x00, 0x00, 0x3c, 0x00, 0x00, 0x00, 0xfe, 0x00, 0x00, 0x00,
  0xfb, 0xff, 0xff, 0xff, 0x9f, 0x00, 0x00, 0x00, 0xe1, 0x03, 0x00, 0x00,
  0xfc, 0x00, 0x00, 0x00, 0x79, 0x02, 0x00, 0x00, 0x42, 0xff, 0xff, 0xff,
  0x8a, 0xfa, 0xff, 0xff, 0x04, 0x00, 0x00, 0x00, 0x80, 0x00, 0x00, 0x00,
  0xbf, 0x25, 0xab, 0x0f, 0x1c, 0x02, 0xd4, 0x49, 0x3e, 0xf6, 0x12, 0xc8,
  0xc6, 0x43, 0x1c, 0x31, 0x19, 0x25, 0x13, 0x40, 0x0d, 0xdd, 0x1a, 0xfa,
  0xd8, 0x54, 0x08, 0x03, 0x2e, 0x0a, 0x0f, 0xe1, 0xc3, 0xeb, 0xd9, 0x35,
  0x2b, 0xd7, 0x2f, 0xd2, 0xea, 0xef, 0xe8, 0x2d, 0xfc, 0x41, 0x27, 0x73,
  0x02, 0x4b, 0xde, 0x41, 0x56, 0x06, 0x17, 0xd9, 0xf8, 0xcb, 0xdf, 0x10,
  0xb2, 0x4b, 0x04, 0x7c, 0x12, 0xf5, 0x49, 0x27, 0x3e, 0xc7, 0x41, 0xed,
  0x35, 0xf9, 0x11, 0x18, 0x42, 0x05, 0x0f, 0xd6, 0x21, 0xe4, 0xd7, 0xfb,
  0xc3, 0xec, 0xca, 0xbe, 0xc7, 0x1d, 0x2a, 0x3b, 0xed, 0x2a, 0xec, 0xd1,
  0xe6, 0xf6, 0xb9, 0x3d, 0xb7, 0x3c, 0x11, 0x7f, 0x2a, 0x54, 0xed, 0x0d,
  0xef, 0x03, 0xf5, 0xe8, 0x11, 0x00, 0xd8, 0x03, 0xd8, 0x2d, 0x2d, 0x14,
  0x2e, 0xc3, 0xe5, 0x19, 0x35, 0x00, 0xc5, 0xef, 0x16, 0xfb, 0xff, 0xff,
  0x04, 0x00, 0x00, 0x00, 0x20, 0x00, 0x00, 0x00, 0xf2, 0xff, 0xff, 0xff,
  0x4f, 0x00, 0x00, 0x00, 0x1d, 0x00, 0x00, 0x00, 0x99, 0x00, 0x00, 0x00,
  0x4d, 0x00, 0x00, 0x00, 0x55, 0x01, 0x00, 0x00, 0x73, 0x01, 0x00, 0x00,
  0x2b, 0x03, 0x00, 0x00, 0x42, 0xfb, 0xff, 0xff, 0x04, 0x00, 0x00, 0x00,
  0x08, 0x04, 0x00, 0x00, 0x05, 0xd8, 0x0d, 0xf2, 0x06, 0xfd, 0x0e, 0x13,
  0x1d, 0xe7, 0xf9, 0x07, 0xd6, 0xfa, 0x07, 0xe1, 0xec, 0xe6, 0x13, 0x04,
  0xff, 0xf8, 0x17, 0x13, 0x10, 0x24, 0x42, 0x13, 0x01, 0x01, 0x1d, 0x16,
  0xef, 0xfb, 0xea, 0xf6, 0xeb, 0xf4, 0x27, 0x22, 0x24, 0x1e, 0xf5, 0xf3,
  0xf6, 0x0a, 0xf1, 0x15, 0xfa, 0xf1, 0xf3, 0xfd, 0x04, 0x02, 0xf2, 0xf1,
  0xee, 0xd6, 0x00, 0x1b, 0x39, 0x04, 0x1c, 0x1b, 0x00, 0x0c, 0xff, 0x0f,
  0xf1, 0xe9, 0xeb, 0xfb, 0x19, 0xfb, 0xd8, 0xfa, 0xd4, 0xee, 0x0d, 0x05,
  0xfd, 0x11, 0xf1, 0x11, 0xe8, 0x0e, 0xf5, 0xfd, 0x15, 0x03, 0x12, 0x17,
  0xfa, 0xea, 0x03, 0xf3, 0xde, 0xeb, 0xee, 0xdb, 0x1a, 0xe5, 0x07, 0xe4,
  0xe7, 0xe2, 0xec, 0xef, 0x21, 0x34, 0x15, 0xff, 0x25, 0x10, 0xf0, 0xef,
  0xf2, 0x16, 0x01, 0x16, 0xf0, 0xf0, 0xde, 0x08, 0x0e, 0x0d, 0x03, 0xea,
  0x15, 0xe3, 0xfc, 0x1b, 0x22, 0xda, 0xd5, 0xe3, 0x12, 0x17, 0x0e, 0xea,
  0x0c, 0xec, 0x0f, 0x3a, 0x0e, 0x0e, 0xf2, 0xf3, 0xe4, 0x32, 0x30, 0x1a,
  0xf8, 0x20, 0x19, 0x22, 0xf6, 0xf7, 0x12, 0xe1, 0xe6, 0x09, 0x13, 0x07,
  0x02, 0x12, 0x0a, 0xeb, 0xf8, 0x11, 0xee, 0x0d, 0x06, 0xeb, 0xfc, 0xd6,
  0xf9, 0x0f, 0xf1, 0x15, 0x2d, 0x16, 0xff, 0x1d, 0x16, 0x37, 0x09, 0x2a,
  0x16, 0x28, 0x16, 0x07, 0x15, 0xdd, 0x0a, 0x04, 0x04, 0xf2, 0xf8, 0xea,
  0xf8, 0xcb, 0xce, 0xdf, 0xec, 0x08, 0xe4, 0x00, 0xe2, 0xe5, 0xe5, 0xfb,
  0xe2, 0xe3, 0xea, 0xe9, 0xe2, 0xf7, 0xf3, 0x27, 0x0f, 0x01, 0x17, 0x0e,
  0x05, 0x01, 0xee, 0xee, 0xd9, 0xe1, 0x03, 0x08, 0xf9, 0x0d, 0xec, 0x04,
  0xe5, 0xf3, 0xe8, 0x04, 0x14, 0x1b, 0x0f, 0x17, 0x22, 0x03, 0x0e, 0x14,
  0x24, 0x2b, 0x2a, 0x01, 0x0c, 0x27, 0x27, 0x0b, 0x39, 0x44, 0x0b, 0xfa,
  0x06, 0x0a, 0xe5, 0x1a, 0xfc, 0x26, 0xfa, 0xf4, 0x23, 0x1d, 0x09, 0x2e,
  0x2e, 0x2e, 0x28, 0x1c, 0xf9, 0xf0, 0x04, 0x08, 0x13, 0xe8, 0x02, 0x0b,
  0xf3, 0x07, 0xfb, 0x18, 0xea, 0xf8, 0x18, 0xf0, 0xe7, 0xf5, 0x14, 0xee,
  0xf9, 0xf4, 0xe2, 0xf4, 0x03, 0x0b, 0x1d, 0x06, 0x26, 0xf7, 0x1c, 0x12,
  0x07, 0xf4, 0x28, 0xef, 0x05, 0x2f, 0x05, 0x22, 0x2f, 0xf4, 0x04, 0xe7,
  0x14, 0xe7, 0xff, 0x28, 0xf5, 0xe8, 0xe6, 0x11, 0xed, 0x15, 0x19, 0x0c,
  0xce, 0x15, 0x10, 0xd9, 0xed, 0xe6, 0xfd, 0xec, 0xe6, 0xe9, 0x01, 0xe7,
  0xe7, 0xf1, 0xe4, 0x02, 0xf3, 0x10, 0x21, 0xde, 0xdc, 0xfb, 0x02, 0xe4,
  0x05, 0xf5, 0xe9, 0xf1, 0xdd, 0xfa, 0xd2, 0xf3, 0xe7, 0xe2, 0x11, 0xef,
  0xeb, 0x16, 0xfb, 0x20, 0xee, 0xeb, 0xeb, 0xef, 0xe7, 0xf1, 0x30, 0x20,
  0x22, 0x34, 0x0f, 0x11, 0x25, 0x0d, 0x02, 0x08, 0xef, 0x18, 0xda, 0x01,
  0xee, 0xe8, 0xdf, 0xe7, 0x02, 0x02, 0x19, 0x0c, 0xff, 0xfa, 0xf8, 0xda,
  0x0e, 0xe8, 0x35, 0x37, 0xff, 0x1c, 0xf5, 0x0e, 0x30, 0x1d, 0x09, 0xd8,
  0x11, 0x15, 0xe2, 0x05, 0x1e, 0x06, 0x08, 0xd7, 0x0d, 0x06, 0xe1, 0x00,
  0x0b, 0x1e, 0x0c, 0x14, 0xf7, 0xfa, 0xec, 0xf3, 0xe5, 0x07, 0x0a, 0xec,
  0xdd, 0xf0, 0x27, 0x07, 0x23, 0xf2, 0x18, 0x0a, 0x15, 0xfd, 0x08, 0x08,
  0xe1, 0x06, 0x0f, 0xe7, 0x16, 0xe1, 0xf7, 0xf0, 0x15, 0x13, 0x14, 0x01,
  0x1c, 0x05, 0xe0, 0x11, 0x15, 0x0d, 0x0a, 0x17, 0x06, 0x05, 0x00, 0x05,
  0x12, 0xf9, 0x0d, 0xfa, 0xe5, 0x15, 0xec, 0x02, 0x13, 0xee, 0x1d, 0x19,
  0xdd, 0xfa, 0xe9, 0x00, 0xeb, 0x0c, 0xf3, 0x10, 0xde, 0xed, 0x1b, 0xdf,
  0xe4, 0xe4, 0x1c, 0x05, 0xd6, 0xe3, 0xfd, 0xe2, 0x10, 0x01, 0xf2, 0xe5,
  0x24, 0x07, 0x1f, 0xff, 0xe7, 0x09, 0xff, 0xfe, 0x09, 0x0a, 0xff, 0x13,
  0x0f, 0xfb, 0xe4, 0xed, 0xb9, 0xa6, 0xc1, 0xc3, 0xaf, 0xab, 0x9c, 0xd3,
  0xad, 0xb6, 0x95, 0xb8, 0x89, 0x9a, 0xb0, 0xf1, 0xc7, 0x1b, 0x31, 0x00,
  0xf7, 0x1b, 0x2a, 0x27, 0x3e, 0x15, 0xfa, 0x23, 0x0b, 0x07, 0x2a, 0x24,
  0x35, 0x2e, 0x09, 0x19, 0x0a, 0xf5, 0xfe, 0x13, 0x15, 0x0c, 0x0e, 0x33,
  0x03, 0xfa, 0x00, 0xeb, 0x05, 0x04, 0xf1, 0x0f, 0x18, 0xfd, 0x02, 0x0e,
  0x14, 0x03, 0x12, 0x24, 0x01, 0xf5, 0xec, 0x0d, 0x04, 0xf6, 0x00, 0x1e,
  0xf6, 0xec, 0x14, 0x1a, 0x0b, 0x1d, 0x2c, 0x03, 0xfe, 0x1c, 0x0a, 0x27,
  0xf8, 0x05, 0x1d, 0x0f, 0x01, 0xf5, 0x31, 0x28, 0x1b, 0xf3, 0x39, 0xf3,
  0x1c, 0x33, 0x06, 0xf8, 0x08, 0x0e, 0x15, 0x4d, 0x0a, 0x3b, 0x09, 0xf4,
  0xfc, 0x03, 0xef, 0x01, 0x03, 0x14, 0x1d, 0x4d, 0x23, 0x14, 0x2e, 0x10,
  0x1f, 0xf9, 0x19, 0x0e, 0x13, 0x04, 0x11, 0xf0, 0x02, 0xf6, 0xdb, 0xfd,
  0xdd, 0x03, 0xce, 0xc9, 0x0f, 0xed, 0x13, 0x0c, 0x0e, 0x06, 0xda, 0x10,
  0x40, 0x2f, 0x0f, 0x19, 0xe5, 0xe3, 0xfc, 0xff, 0xe3, 0x2a, 0x00, 0x0d,
  0x20, 0xec, 0x2b, 0x39, 0x3d, 0xfd, 0x25, 0x17, 0x18, 0xf8, 0xf1, 0xc4,
  0xe6, 0x08, 0xf5, 0xd6, 0xf9, 0xcd, 0xb1, 0xb8, 0xfd, 0xf0, 0x01, 0x05,
  0xf1, 0xe3, 0xff, 0xf8, 0x1e, 0xd6, 0xe5, 0xf8, 0x08, 0xe8, 0xff, 0xe3,
  0xf2, 0xf0, 0x19, 0x0d, 0x14, 0x19, 0x39, 0x12, 0x32, 0x0d, 0x34, 0x00,
  0x09, 0xf1, 0x20, 0x00, 0x2a, 0xfc, 0x14, 0xe8, 0x06, 0x1f, 0x10, 0x15,
  0x16, 0x0a, 0xfc, 0x21, 0x21, 0x16, 0x0f, 0x1e, 0x1b, 0x44, 0x41, 0x1d,
  0x06, 0x16, 0x27, 0x34, 0x2c, 0x19, 0x10, 0x2a, 0x29, 0x29, 0x2e, 0x2f,
  0x04, 0xf4, 0xf2, 0xe1, 0xde, 0xe4, 0x09, 0xe1, 0xeb, 0x25, 0x15, 0x09,
  0xe8, 0x24, 0x02, 0x24, 0x13, 0xf6, 0x0b, 0x08, 0x25, 0x0c, 0x25, 0xf5,
  0x1c, 0xee, 0x1d, 0xee, 0xfe, 0x26, 0xe4, 0xfc, 0x20, 0x03, 0xe8, 0xe3,
  0xde, 0x01, 0xf1, 0xe8, 0xdd, 0x1a, 0xe3, 0xfc, 0x10, 0xfb, 0xed, 0x10,
  0x19, 0x0d, 0x18, 0x15, 0x0c, 0x02, 0xf2, 0xed, 0x16, 0x13, 0xda, 0x1d,
  0x2f, 0x33, 0xf4, 0xfb, 0xec, 0x2c, 0xf6, 0xfb, 0x1b, 0xf6, 0xed, 0x13,
  0xeb, 0xe9, 0xfb, 0xe5, 0x1a, 0xcb, 0x04, 0xd3, 0x13, 0x01, 0x09, 0x0b,
  0xf8, 0x03, 0x0a, 0xe4, 0xde, 0xfa, 0xe9, 0xec, 0x0f, 0xfa, 0x0e, 0xed,
  0xfa, 0x1c, 0x15, 0x22, 0x22, 0x0d, 0xef, 0xff, 0x18, 0xfd, 0xe9, 0x15,
  0xf5, 0xdd, 0xf1, 0xfc, 0x0e, 0x17, 0xee, 0x19, 0x0b, 0x13, 0x1d, 0xfc,
  0xe0, 0x18, 0x09, 0xfc, 0xe3, 0x14, 0xf2, 0xda, 0xef, 0x00, 0xfe, 0x14,
  0x25, 0x29, 0x14, 0x0e, 0xf4, 0x05, 0x2b, 0x0e, 0xe6, 0xeb, 0xe1, 0xcd,
  0xd3, 0xf2, 0xe9, 0x02, 0x24, 0xdc, 0xe1, 0xed, 0x1c, 0xea, 0x04, 0xfa,
  0x1f, 0xeb, 0x1b, 0x32, 0xfb, 0x1b, 0xf3, 0x0b, 0xe6, 0xfb, 0xff, 0x08,
  0xd6, 0x01, 0xf6, 0x27, 0x14, 0x03, 0x00, 0xe6, 0x01, 0xe1, 0xda, 0xf2,
  0xe8, 0x17, 0xec, 0x13, 0x0f, 0x03, 0x15, 0x17, 0x1f, 0xfd, 0x04, 0x44,
  0x24, 0x09, 0x01, 0x0e, 0xe9, 0xf3, 0x0f, 0x25, 0x19, 0x03, 0x02, 0xe1,
  0xf8, 0xf2, 0x33, 0xfd, 0x3c, 0x42, 0x2d, 0x04, 0x46, 0x41, 0x1f, 0x22,
  0x59, 0x4d, 0x43, 0x2e, 0x4d, 0x47, 0x1f, 0x15, 0x17, 0x3c, 0x21, 0x06,
  0x2f, 0x3a, 0x3f, 0x59, 0x3a, 0x69, 0x5b, 0x32, 0x54, 0x6b, 0x5e, 0x5d,
  0x7f, 0x45, 0x5d, 0x17, 0x57, 0x38, 0x3f, 0x33, 0x21, 0x27, 0x35, 0x3a,
  0x1f, 0x23, 0x2b, 0x11, 0x30, 0x14, 0x26, 0x06, 0x3d, 0x3f, 0x1c, 0x37,
  0x36, 0x28, 0x1d, 0x12, 0x20, 0xff, 0xff, 0xff, 0x24, 0xff, 0xff, 0xff,
  0x0f, 0x00, 0x00, 0x00, 0x4d, 0x4c, 0x49, 0x52, 0x20, 0x43, 0x6f, 0x6e,
  0x76, 0x65, 0x72, 0x74, 0x65, 0x64, 0x2e, 0x00, 0x01, 0x00, 0x00, 0x00,
  0x14, 0x00, 0x00, 0x00, 0x00, 0x00, 0x0e, 0x00, 0x18, 0x00, 0x14, 0x00,
  0x10, 0x00, 0x0c, 0x00, 0x08, 0x00, 0x04, 0x00, 0x0e, 0x00, 0x00, 0x00,
  0x14, 0x00, 0x00, 0x00, 0x1c, 0x00, 0x00, 0x00, 0x70, 0x01, 0x00, 0x00,
  0x74, 0x01, 0x00, 0x00, 0x78, 0x01, 0x00, 0x00, 0x04, 0x00, 0x00, 0x00,
  0x6d, 0x61, 0x69, 0x6e, 0x00, 0x00, 0x00, 0x00, 0x06, 0x00, 0x00, 0x00,
  0x38, 0x01, 0x00, 0x00, 0xe8, 0x00, 0x00, 0x00, 0x9c, 0x00, 0x00, 0x00,
  0x60, 0x00, 0x00, 0x00, 0x24, 0x00, 0x00, 0x00, 0x04, 0x00, 0x00, 0x00,
  0xea, 0xfe, 0xff, 0xff, 0x08, 0x00, 0x00, 0x00, 0x0c, 0x00, 0x00, 0x00,
  0x01, 0x00, 0x00, 0x00, 0x0c, 0x00, 0x00, 0x00, 0x01, 0x00, 0x00, 0x00,
  0x0b, 0x00, 0x00, 0x00, 0x56, 0xff, 0xff, 0xff, 0x1c, 0x00, 0x00, 0x00,
  0x00, 0x00, 0x00, 0x09, 0x1c, 0x00, 0x00, 0x00, 0x20, 0x00, 0x00, 0x00,
  0x02, 0x00, 0x00, 0x00, 0x00, 0x00, 0x06, 0x00, 0x08, 0x00, 0x04, 0x00,
  0x06, 0x00, 0x00, 0x00, 0x00, 0x00, 0x80, 0x3f, 0x01, 0x00, 0x00, 0x00,
  0x0b, 0x00, 0x00, 0x00, 0x01, 0x00, 0x00, 0x00, 0x0a, 0x00, 0x00, 0x00,
  0x8e, 0xff, 0xff, 0xff, 0x18, 0x00, 0x00, 0x00, 0x00, 0x00, 0x00, 0x08,
  0x14, 0x00, 0x00, 0x00, 0x18, 0x00, 0x00, 0x00, 0x01, 0x00, 0x00, 0x00,
  0x04, 0x00, 0x04, 0x00, 0x04, 0x00, 0x00, 0x00, 0x01, 0x00, 0x00, 0x00,
  0x0a, 0x00, 0x00, 0x00, 0x03, 0x00, 0x00, 0x00, 0x09, 0x00, 0x00, 0x00,
  0x05, 0x00, 0x00, 0x00, 0x06, 0x00, 0x00, 0x00, 0xc6, 0xff, 0xff, 0xff,
  0x14, 0x00, 0x00, 0x00, 0x00, 0x00, 0x00, 0x08, 0x14, 0x00, 0x00, 0x00,
  0x18, 0x00, 0x00, 0x00, 0x01, 0x00, 0x00, 0x00, 0xb6, 0xff, 0xff, 0xff,
  0x00, 0x00, 0x00, 0x01, 0x01, 0x00, 0x00, 0x00, 0x09, 0x00, 0x00, 0x00,
  0x03, 0x00, 0x00, 0x00, 0x08, 0x00, 0x00, 0x00, 0x03, 0x00, 0x00, 0x00,
  0x04, 0x00, 0x00, 0x00, 0x00, 0x00, 0x0e, 0x00, 0x1a, 0x00, 0x14, 0x00,
  0x10, 0x00, 0x0c, 0x00, 0x0b, 0x00, 0x04, 0x00, 0x0e, 0x00, 0x00, 0x00,
  0x1c, 0x00, 0x00, 0x00, 0x00, 0x00, 0x00, 0x08, 0x1c, 0x00, 0x00, 0x00,
  0x20, 0x00, 0x00, 0x00, 0x01, 0x00, 0x00, 0x00, 0x00, 0x00, 0x06, 0x00,
  0x08, 0x00, 0x07, 0x00, 0x06, 0x00, 0x00, 0x00, 0x00, 0x00, 0x00, 0x01,
  0x01, 0x00, 0x00, 0x00, 0x08, 0x00, 0x00, 0x00, 0x03, 0x00, 0x00, 0x00,
  0x07, 0x00, 0x00, 0x00, 0x01, 0x00, 0x00, 0x00, 0x02, 0x00, 0x00, 0x00,
  0x00, 0x00, 0x0a, 0x00, 0x0c, 0x00, 0x00, 0x00, 0x08, 0x00, 0x04, 0x00,
  0x0a, 0x00, 0x00, 0x00, 0x08, 0x00, 0x00, 0x00, 0x0c, 0x00, 0x00, 0x00,
  0x01, 0x00, 0x00, 0x00, 0x07, 0x00, 0x00, 0x00, 0x01, 0x00, 0x00, 0x00,
  0x00, 0x00, 0x00, 0x00, 0x01, 0x00, 0x00, 0x00, 0x0c, 0x00, 0x00, 0x00,
  0x01, 0x00, 0x00, 0x00, 0x00, 0x00, 0x00, 0x00, 0x0d, 0x00, 0x00, 0x00,
  0x30, 0x06, 0x00, 0x00, 0xb0, 0x05, 0x00, 0x00, 0x2c, 0x05, 0x00, 0x00,
  0xc0, 0x04, 0x00, 0x00, 0x4c, 0x04, 0x00, 0x00, 0xe0, 0x03, 0x00, 0x00,
  0x6c, 0x03, 0x00, 0x00, 0x00, 0x03, 0x00, 0x00, 0x4c, 0x02, 0x00, 0x00,
  0x98, 0x01, 0x00, 0x00, 0xfc, 0x00, 0x00, 0x00, 0x80, 0x00, 0x00, 0x00,
  0x04, 0x00, 0x00, 0x00, 0x18, 0xfa, 0xff, 0xff, 0x18, 0x00, 0x00, 0x00,
  0x20, 0x00, 0x00, 0x00, 0x40, 0x00, 0x00, 0x00, 0x0d, 0x00, 0x00, 0x00,
  0x00, 0x00, 0x00, 0x03, 0x54, 0x00, 0x00, 0x00, 0x02, 0x00, 0x00, 0x00,
  0xff, 0xff, 0xff, 0xff, 0x02, 0x00, 0x00, 0x00, 0x04, 0xfa, 0xff, 0xff,
  0x08, 0x00, 0x00, 0x00, 0x14, 0x00, 0x00, 0x00, 0x01, 0x00, 0x00, 0x00,
  0x00, 0x00, 0x00, 0x00, 0x00, 0x00, 0x00, 0x00, 0x00, 0x00, 0x00, 0x00,
  0x01, 0x00, 0x00, 0x00, 0x00, 0x00, 0x80, 0x3b, 0x19, 0x00, 0x00, 0x00,
  0x53, 0x74, 0x61, 0x74, 0x65, 0x66, 0x75, 0x6c, 0x50, 0x61, 0x72, 0x74,
  0x69, 0x74, 0x69, 0x6f, 0x6e, 0x65, 0x64, 0x43, 0x61, 0x6c, 0x6c, 0x3a,
  0x30, 0x00, 0x00, 0x00, 0x02, 0x00, 0x00, 0x00, 0x01, 0x00, 0x00, 0x00,
  0x02, 0x00, 0x00, 0x00, 0x90, 0xfa, 0xff, 0xff, 0x18, 0x00, 0x00, 0x00,
  0x20, 0x00, 0x00, 0x00, 0x40, 0x00, 0x00, 0x00, 0x0c, 0x00, 0x00, 0x00,
  0x00, 0x00, 0x00, 0x09, 0x54, 0x00, 0x00, 0x00, 0x02, 0x00, 0x00, 0x00,
  0xff, 0xff, 0xff, 0xff, 0x02, 0x00, 0x00, 0x00, 0x7c, 0xfa, 0xff, 0xff,
  0x08, 0x00, 0x00, 0x00, 0x14, 0x00, 0x00, 0x00, 0x01, 0x00, 0x00, 0x00,
  0x80, 0xff, 0xff, 0xff, 0xff, 0xff, 0xff, 0xff, 0x00, 0x00, 0x00, 0x00,
  0x01, 0x00, 0x00, 0x00, 0x00, 0x00, 0x80, 0x3b, 0x1a, 0x00, 0x00, 0x00,
  0x53, 0x74, 0x61, 0x74, 0x65, 0x66, 0x75, 0x6c, 0x50, 0x61, 0x72, 0x74,
  0x69, 0x74, 0x69, 0x6f, 0x6e, 0x65, 0x64, 0x43, 0x61, 0x6c, 0x6c, 0x3a,
  0x30, 0x31, 0x00, 0x00, 0x02, 0x00, 0x00, 0x00, 0x01, 0x00, 0x00, 0x00,
  0x02, 0x00, 0x00, 0x00, 0x08, 0xfb, 0xff, 0xff, 0x18, 0x00, 0x00, 0x00,
  0x20, 0x00, 0x00, 0x00, 0x40, 0x00, 0x00, 0x00, 0x0b, 0x00, 0x00, 0x00,
  0x00, 0x00, 0x00, 0x09, 0x74, 0x00, 0x00, 0x00, 0x02, 0x00, 0x00, 0x00,
  0xff, 0xff, 0xff, 0xff, 0x02, 0x00, 0x00, 0x00, 0xf4, 0xfa, 0xff, 0xff,
  0x08, 0x00, 0x00, 0x00, 0x14, 0x00, 0x00, 0x00, 0x01, 0x00, 0x00, 0x00,
  0x16, 0x00, 0x00, 0x00, 0x00, 0x00, 0x00, 0x00, 0x00, 0x00, 0x00, 0x00,
  0x01, 0x00, 0x00, 0x00, 0xd3, 0x5e, 0x11, 0x3e, 0x38, 0x00, 0x00, 0x00,
  0x73, 0x65, 0x71, 0x75, 0x65, 0x6e, 0x74, 0x69, 0x61, 0x6c, 0x5f, 0x31,
  0x2f, 0x64, 0x65, 0x6e, 0x73, 0x65, 0x5f, 0x35, 0x2f, 0x4d, 0x61, 0x74,
  0x4d, 0x75, 0x6c, 0x3b, 0x73, 0x65, 0x71, 0x75, 0x65, 0x6e, 0x74, 0x69,
  0x61, 0x6c, 0x5f, 0x31, 0x2f, 0x64, 0x65, 0x6e, 0x73, 0x65, 0x5f, 0x35,
  0x2f, 0x42, 0x69, 0x61, 0x73, 0x41, 0x64, 0x64, 0x00, 0x00, 0x00, 0x00,
  0x02, 0x00, 0x00, 0x00, 0x01, 0x00, 0x00, 0x00, 0x02, 0x00, 0x00, 0x00,
  0xa0, 0xfb, 0xff, 0xff, 0x18, 0x00, 0x00, 0x00, 0x20, 0x00, 0x00, 0x00,
  0x40, 0x00, 0x00, 0x00, 0x0a, 0x00, 0x00, 0x00, 0x00, 0x00, 0x00, 0x09,
  0x8c, 0x00, 0x00, 0x00, 0x02, 0x00, 0x00, 0x00, 0xff, 0xff, 0xff, 0xff,
  0x10, 0x00, 0x00, 0x00, 0x8c, 0xfb, 0xff, 0xff, 0x08, 0x00, 0x00, 0x00,
  0x14, 0x00, 0x00, 0x00, 0x01, 0x00, 0x00, 0x00, 0x80, 0xff, 0xff, 0xff,
  0xff, 0xff, 0xff, 0xff, 0x00, 0x00, 0x00, 0x00, 0x01, 0x00, 0x00, 0x00,
  0x82, 0x1a, 0x0d, 0x3d, 0x52, 0x00, 0x00, 0x00, 0x73, 0x65, 0x71, 0x75,
  0x65, 0x6e, 0x74, 0x69, 0x61, 0x6c, 0x5f, 0x31, 0x2f, 0x64, 0x65, 0x6e,
  0x73, 0x65, 0x5f, 0x34, 0x2f, 0x4d, 0x61, 0x74, 0x4d, 0x75, 0x6c, 0x3b,
  0x73, 0x65, 0x71, 0x75, 0x65, 0x6e, 0x74, 0x69, 0x61, 0x6c, 0x5f, 0x31,
  0x2f, 0x64, 0x65, 0x6e, 0x73, 0x65, 0x5f, 0x34, 0x2f, 0x52, 0x65, 0x6c,
  0x75, 0x3b, 0x73, 0x65, 0x71, 0x75, 0x65, 0x6e, 0x74, 0x69, 0x61, 0x6c,
  0x5f, 0x31, 0x2f, 0x64, 0x65, 0x6e, 0x73, 0x65, 0x5f, 0x34, 0x2f, 0x42,
  0x69, 0x61, 0x73, 0x41, 0x64, 0x64, 0x00, 0x00, 0x02, 0x00, 0x00, 0x00,
  0x01, 0x00, 0x00, 0x00, 0x10, 0x00, 0x00, 0x00, 0x50, 0xfc, 0xff, 0xff,
  0x18, 0x00, 0x00, 0x00, 0x20, 0x00, 0x00, 0x00, 0x40, 0x00, 0x00, 0x00,
  0x09, 0x00, 0x00, 0x00, 0x00, 0x00, 0x00, 0x09, 0x8c, 0x00, 0x00, 0x00,
  0x02, 0x00, 0x00, 0x00, 0xff, 0xff, 0xff, 0xff, 0x08, 0x00, 0x00, 0x00,
  0x3c, 0xfc, 0xff, 0xff, 0x08, 0x00, 0x00, 0x00, 0x14, 0x00, 0x00, 0x00,
  0x01, 0x00, 0x00, 0x00, 0x80, 0xff, 0xff, 0xff, 0xff, 0xff, 0xff, 0xff,
  0x00, 0x00, 0x00, 0x00, 0x01, 0x00, 0x00, 0x00, 0xf5, 0x2f, 0x0d, 0x3d,
  0x52, 0x00, 0x00, 0x00, 0x73, 0x65, 0x71, 0x75, 0x65, 0x6e, 0x74, 0x69,
  0x61, 0x6c, 0x5f, 0x31, 0x2f, 0x64, 0x65, 0x6e, 0x73, 0x65, 0x5f, 0x33,
  0x2f, 0x4d, 0x61, 0x74, 0x4d, 0x75, 0x6c, 0x3b, 0x73, 0x65, 0x71, 0x75,
  0x65, 0x6e, 0x74, 0x69, 0x61, 0x6c, 0x5f, 0x31, 0x2f, 0x64, 0x65, 0x6e,
  0x73, 0x65, 0x5f, 0x33, 0x2f, 0x52, 0x65, 0x6c, 0x75, 0x3b, 0x73, 0x65,
  0x71, 0x75, 0x65, 0x6e, 0x74, 0x69, 0x61, 0x6c, 0x5f, 0x31, 0x2f, 0x64,
  0x65, 0x6e, 0x73, 0x65, 0x5f, 0x33, 0x2f, 0x42, 0x69, 0x61, 0x73, 0x41,
  0x64, 0x64, 0x00, 0x00, 0x02, 0x00, 0x00, 0x00, 0x01, 0x00, 0x00, 0x00,
  0x08, 0x00, 0x00, 0x00, 0x00, 0xfd, 0xff, 0xff, 0x18, 0x00, 0x00, 0x00,
  0x20, 0x00, 0x00, 0x00, 0x3c, 0x00, 0x00, 0x00, 0x08, 0x00, 0x00, 0x00,
  0x00, 0x00, 0x00, 0x09, 0x44, 0x00, 0x00, 0x00, 0x02, 0x00, 0x00, 0x00,
  0xff, 0xff, 0xff, 0xff, 0x81, 0x00, 0x00, 0x00, 0xec, 0xfc, 0xff, 0xff,
  0x08, 0x00, 0x00, 0x00, 0x10, 0x00, 0x00, 0x00, 0x01, 0x00, 0x00, 0x00,
  0x80, 0xff, 0xff, 0xff, 0xff, 0xff, 0xff, 0xff, 0x01, 0x00, 0x00, 0x00,
  0xf8, 0xb4, 0x89, 0x3d, 0x0c, 0x00, 0x00, 0x00, 0x74, 0x66, 0x6c, 0x2e,
  0x71, 0x75, 0x61, 0x6e, 0x74, 0x69, 0x7a, 0x65, 0x00, 0x00, 0x00, 0x00,
  0x02, 0x00, 0x00, 0x00, 0x01, 0x00, 0x00, 0x00, 0x81, 0x00, 0x00, 0x00,
  0xde, 0xfd, 0xff, 0xff, 0x14, 0x00, 0x00, 0x00, 0x30, 0x00, 0x00, 0x00,
  0x07, 0x00, 0x00, 0x00, 0x00, 0x00, 0x00, 0x02, 0x54, 0x00, 0x00, 0x00,
  0x44, 0xfd, 0xff, 0xff, 0x08, 0x00, 0x00, 0x00, 0x10, 0x00, 0x00, 0x00,
  0x01, 0x00, 0x00, 0x00, 0x00, 0x00, 0x00, 0x00, 0x00, 0x00, 0x00, 0x00,
  0x01, 0x00, 0x00, 0x00, 0x61, 0x90, 0x8b, 0x39, 0x2b, 0x00, 0x00, 0x00,
  0x73, 0x65, 0x71, 0x75, 0x65, 0x6e, 0x74, 0x69, 0x61, 0x6c, 0x5f, 0x31,
  0x2f, 0x64, 0x65, 0x6e, 0x73, 0x65, 0x5f, 0x35, 0x2f, 0x42, 0x69, 0x61,
  0x73, 0x41, 0x64, 0x64, 0x2f, 0x52, 0x65, 0x61, 0x64, 0x56, 0x61, 0x72,
  0x69, 0x61, 0x62, 0x6c, 0x65, 0x4f, 0x70, 0x00, 0x01, 0x00, 0x00, 0x00,
  0x02, 0x00, 0x00, 0x00, 0x4e, 0xfe, 0xff, 0xff, 0x14, 0x00, 0x00, 0x00,
  0x34, 0x00, 0x00, 0x00, 0x06, 0x00, 0x00, 0x00, 0x00, 0x00, 0x00, 0x09,
  0x48, 0x00, 0x00, 0x00, 0xb4, 0xfd, 0xff, 0xff, 0x08, 0x00, 0x00, 0x00,
  0x14, 0x00, 0x00, 0x00, 0x01, 0x00, 0x00, 0x00, 0x00, 0x00, 0x00, 0x00,
  0x00, 0x00, 0x00, 0x00, 0x00, 0x00, 0x00, 0x00, 0x01, 0x00, 0x00, 0x00,
  0xf2, 0x34, 0xfd, 0x3b, 0x1b, 0x00, 0x00, 0x00, 0x73, 0x65, 0x71, 0x75,
  0x65, 0x6e, 0x74, 0x69, 0x61, 0x6c, 0x5f, 0x31, 0x2f, 0x64, 0x65, 0x6e,
  0x73, 0x65, 0x5f, 0x35, 0x2f, 0x4d, 0x61, 0x74, 0x4d, 0x75, 0x6c, 0x00,
  0x02, 0x00, 0x00, 0x00, 0x02, 0x00, 0x00, 0x00, 0x10, 0x00, 0x00, 0x00,
  0xb6, 0xfe, 0xff, 0xff, 0x14, 0x00, 0x00, 0x00, 0x30, 0x00, 0x00, 0x00,
  0x05, 0x00, 0x00, 0x00, 0x00, 0x00, 0x00, 0x02, 0x54, 0x00, 0x00, 0x00,
  0x1c, 0xfe, 0xff, 0xff, 0x08, 0x00, 0x00, 0x00, 0x10, 0x00, 0x00, 0x00,
  0x01, 0x00, 0x00, 0x00, 0x00, 0x00, 0x00, 0x00, 0x00, 0x00, 0x00, 0x00,
  0x01, 0x00, 0x00, 0x00, 0xcb, 0xaf, 0x83, 0x39, 0x2b, 0x00, 0x00, 0x00,
  0x73, 0x65, 0x71, 0x75, 0x65, 0x6e, 0x74, 0x69, 0x61, 0x6c, 0x5f, 0x31,
  0x2f, 0x64, 0x65, 0x6e, 0x73, 0x65, 0x5f, 0x34, 0x2f, 0x42, 0x69, 0x61,
  0x73, 0x41, 0x64, 0x64, 0x2f, 0x52, 0x65, 0x61, 0x64, 0x56, 0x61, 0x72,
  0x69, 0x61, 0x62, 0x6c, 0x65, 0x4f, 0x70, 0x00, 0x01, 0x00, 0x00, 0x00,
  0x10, 0x00, 0x00, 0x00, 0x26, 0xff, 0xff, 0xff, 0x14, 0x00, 0x00, 0x00,
  0x34, 0x00, 0x00, 0x00, 0x04, 0x00, 0x00, 0x00, 0x00, 0x00, 0x00, 0x09,
  0x48, 0x00, 0x00, 0x00, 0x8c, 0xfe, 0xff, 0xff, 0x08, 0x00, 0x00, 0x00,
  0x14, 0x00, 0x00, 0x00, 0x01, 0x00, 0x00, 0x00, 0x00, 0x00, 0x00, 0x00,
  0x00, 0x00, 0x00, 0x00, 0x00, 0x00, 0x00, 0x00, 0x01, 0x00, 0x00, 0x00,
  0x04, 0xc6, 0xee, 0x3b, 0x1b, 0x00, 0x00, 0x00, 0x73, 0x65, 0x71, 0x75,
  0x65, 0x6e, 0x74, 0x69, 0x61, 0x6c, 0x5f, 0x31, 0x2f, 0x64, 0x65, 0x6e,
  0x73, 0x65, 0x5f, 0x34, 0x2f, 0x4d, 0x61, 0x74, 0x4d, 0x75, 0x6c, 0x00,
  0x02, 0x00, 0x00, 0x00, 0x10, 0x00, 0x00, 0x00, 0x08, 0x00, 0x00, 0x00,
  0x8e, 0xff, 0xff, 0xff, 0x14, 0x00, 0x00, 0x00, 0x30, 0x00, 0x00, 0x00,
  0x03, 0x00, 0x00, 0x00, 0x00, 0x00, 0x00, 0x02, 0x54, 0x00, 0x00, 0x00,
  0xf4, 0xfe, 0xff, 0xff, 0x08, 0x00, 0x00, 0x00, 0x10, 0x00, 0x00, 0x00,
  0x01, 0x00, 0x00, 0x00, 0x00, 0x00, 0x00, 0x00, 0x00, 0x00, 0x00, 0x00,
  0x01, 0x00, 0x00, 0x00, 0xde, 0x3e, 0xd3, 0x39, 0x2b, 0x00, 0x00, 0x00,
  0x73, 0x65, 0x71, 0x75, 0x65, 0x6e, 0x74, 0x69, 0x61, 0x6c, 0x5f, 0x31,
  0x2f, 0x64, 0x65, 0x6e, 0x73, 0x65, 0x5f, 0x33, 0x2f, 0x42, 0x69, 0x61,
  0x73, 0x41, 0x64, 0x64, 0x2f, 0x52, 0x65, 0x61, 0x64, 0x56, 0x61, 0x72,
  0x69, 0x61, 0x62, 0x6c, 0x65, 0x4f, 0x70, 0x00, 0x01, 0x00, 0x00, 0x00,
  0x08, 0x00, 0x00, 0x00, 0x00, 0x00, 0x0e, 0x00, 0x18, 0x00, 0x14, 0x00,
  0x13, 0x00, 0x0c, 0x00, 0x08, 0x00, 0x04, 0x00, 0x0e, 0x00, 0x00, 0x00,
  0x14, 0x00, 0x00, 0x00, 0x34, 0x00, 0x00, 0x00, 0x02, 0x00, 0x00, 0x00,
  0x00, 0x00, 0x00, 0x09, 0x48, 0x00, 0x00, 0x00, 0x74, 0xff, 0xff, 0xff,
  0x08, 0x00, 0x00, 0x00, 0x14, 0x00, 0x00, 0x00, 0x01, 0x00, 0x00, 0x00,
  0x00, 0x00, 0x00, 0x00, 0x00, 0x00, 0x00, 0x00, 0x00, 0x00, 0x00, 0x00,
  0x01, 0x00, 0x00, 0x00, 0xde, 0x5a, 0xc4, 0x3b, 0x1b, 0x00, 0x00, 0x00,
  0x73, 0x65, 0x71, 0x75, 0x65, 0x6e, 0x74, 0x69, 0x61, 0x6c, 0x5f, 0x31,
  0x2f, 0x64, 0x65, 0x6e, 0x73, 0x65, 0x5f, 0x33, 0x2f, 0x4d, 0x61, 0x74,
  0x4d, 0x75, 0x6c, 0x00, 0x02, 0x00, 0x00, 0x00, 0x08, 0x00, 0x00, 0x00,
  0x81, 0x00, 0x00, 0x00, 0x14, 0x00, 0x1c, 0x00, 0x18, 0x00, 0x17, 0x00,
  0x10, 0x00, 0x0c, 0x00, 0x08, 0x00, 0x00, 0x00, 0x00, 0x00, 0x04, 0x00,
  0x14, 0x00, 0x00, 0x00, 0x18, 0x00, 0x00, 0x00, 0x2c, 0x00, 0x00, 0x00,
  0x4c, 0x00, 0x00, 0x00, 0x01, 0x00, 0x00, 0x00, 0x00, 0x00, 0x00, 0x03,
  0x64, 0x00, 0x00, 0x00, 0x02, 0x00, 0x00, 0x00, 0xff, 0xff, 0xff, 0xff,
  0x81, 0x00, 0x00, 0x00, 0x0c, 0x00, 0x0c, 0x00, 0x00, 0x00, 0x00, 0x00,
  0x08, 0x00, 0x04, 0x00, 0x0c, 0x00, 0x00, 0x00, 0x08, 0x00, 0x00, 0x00,
  0x14, 0x00, 0x00, 0x00, 0x01, 0x00, 0x00, 0x00, 0x00, 0x00, 0x00, 0x00,
  0x00, 0x00, 0x00, 0x00, 0x00, 0x00, 0x00, 0x00, 0x01, 0x00, 0x00, 0x00,
  0xf8, 0xb4, 0x89, 0x3d, 0x1f, 0x00, 0x00, 0x00, 0x73, 0x65, 0x72, 0x76,
  0x69, 0x6e, 0x67, 0x5f, 0x64, 0x65, 0x66, 0x61, 0x75, 0x6c, 0x74, 0x5f,
  0x64, 0x65, 0x6e, 0x73, 0x65, 0x5f, 0x33, 0x5f, 0x69, 0x6e, 0x70, 0x75,
  0x74, 0x3a, 0x30, 0x00, 0x02, 0x00, 0x00, 0x00, 0x01, 0x00, 0x00, 0x00,
  0x81, 0x00, 0x00, 0x00, 0x03, 0x00, 0x00, 0x00, 0x44, 0x00, 0x00, 0x00,
  0x24, 0x00, 0x00, 0x00, 0x04, 0x00, 0x00, 0x00, 0xf0, 0xff, 0xff, 0xff,
  0x19, 0x00, 0x00, 0x00, 0x02, 0x00, 0x00, 0x00, 0x00, 0x00, 0x00, 0x19,
  0x0c, 0x00, 0x10, 0x00, 0x0f, 0x00, 0x00, 0x00, 0x08, 0x00, 0x04, 0x00,
  0x0c, 0x00, 0x00, 0x00, 0x09, 0x00, 0x00, 0x00, 0x04, 0x00, 0x00, 0x00,
  0x00, 0x00, 0x00, 0x09, 0x0c, 0x00, 0x0c, 0x00, 0x0b, 0x00, 0x00, 0x00,
  0x00, 0x00, 0x04, 0x00, 0x0c, 0x00, 0x00, 0x00, 0x72, 0x00, 0x00, 0x00,
  0x00, 0x00, 0x00, 0x72
};

const int g_model_len = sizeof(g_model);
